<unk>	0
<s>	0
</s>	0
,	-2.88643
.	-2.94232
s	-3.36271
▁the	-4.00035
▁	-4.2616
d	-4.27892
▁and	-4.41397
e	-4.42628
t	-4.43134
▁to	-4.46582
▁of	-4.4891
▁a	-4.48983
▁I	-4.53406
▁you	-4.7203
▁in	-4.74618
y	-4.76969
n	-4.81613
▁my	-4.8696
?	-4.87097
;	-5.00111
▁HAMLET	-5.07315
▁it	-5.10077
o	-5.10188
a	-5.1307
ing	-5.14847
▁is	-5.17614
▁be	-5.19384
▁me	-5.24439
▁not	-5.24583
r	-5.30397
er	-5.31422
▁And	-5.32773
▁his	-5.33418
st	-5.33938
m	-5.35197
p	-5.3692
▁that	-5.37102
i	-5.43079
▁this	-5.4564
▁with	-5.49505
re	-5.51244
c	-5.51306
u	-5.54472
ed	-5.54545
▁your	-5.55655
▁s	-5.56798
▁A	-5.57451
▁for	-5.57906
▁he	-5.59382
▁lord	-5.60921
!	-5.67262
▁him	-5.68797
▁The	-5.69386
I	-5.72617
▁so	-5.76663
▁[_	-5.79577
._]	-5.80148
ly	-5.80482
on	-5.82074
g	-5.82923
▁we	-5.82954
▁do	-5.83945
f	-5.84024
w	-5.85475
b	-5.85557
▁have	-5.86138
▁O	-5.8774
▁c	-5.91442
▁will	-5.91733
▁as	-5.92652
al	-5.92969
en	-5.93137
ir	-5.93182
or	-5.94513
▁M	-5.94931
h	-5.96823
l	-5.98738
in	-6.00029
▁but	-6.0263
▁b	-6.04656
▁w	-6.05418
ar	-6.06118
▁That	-6.06216
▁on	-6.06674
▁S	-6.07662
k	-6.08546
v	-6.09948
▁But	-6.09973
▁To	-6.11072
le	-6.12068
▁g	-6.13775
▁mo	-6.14713
ter	-6.18499
▁are	-6.19443
▁C	-6.21555
an	-6.21779
▁all	-6.23502
th	-6.2406
▁what	-6.24987
▁our	-6.25469
▁HORATIO	-6.25839
▁no	-6.2668
-	-6.26748
▁K	-6.27077
▁Hamlet	-6.27665
▁shall	-6.27689
▁f	-6.28071
ur	-6.2956
NG	-6.29914
se	-6.313
it	-6.31413
▁What	-6.32383
ce	-6.33889
▁p	-6.34059
ent	-6.34078
es	-6.36272
▁re	-6.38335
:	-6.39386
▁by	-6.3952
▁or	-6.40201
▁come	-6.40497
▁th	-6.43089
ra	-6.4401
▁thou	-6.44712
ve	-6.45067
▁more	-6.45265
▁st	-6.45749
▁know	-6.45806
▁good	-6.48047
ro	-6.48062
il	-6.4874
▁her	-6.4996
ri	-6.50292
▁POLONIUS	-6.50326
▁e	-6.50543
▁F	-6.52458
▁from	-6.52666
▁was	-6.55291
▁For	-6.55334
ion	-6.57286
▁like	-6.57747
▁un	-6.57831
▁thy	-6.59781
EN	-6.6084
▁Q	-6.61312
▁them	-6.61938
▁love	-6.62797
▁de	-6.62963
▁us	-6.65126
UE	-6.6526
ll	-6.66344
ant	-6.66384
▁would	-6.66735
▁King	-6.68869
▁go	-6.69594
▁now	-6.69826
▁at	-6.70171
▁father	-6.70799
▁there	-6.71285
at	-6.7177
▁they	-6.73472
el	-6.74044
▁As	-6.74541
▁He	-6.74705
▁con	-6.75474
▁No	-6.75844
et	-6.76832
▁P	-6.76888
▁well	-6.76933
▁En	-6.77095
ch	-6.77252
▁d	-6.77745
x	-6.78134
▁ha	-6.79486
li	-6.80626
▁sir	-6.80679
▁an	-6.81412
▁You	-6.82313
▁LAERTES	-6.82823
▁may	-6.83295
as	-6.83878
N	-6.84629
▁co	-6.84903
▁let	-6.85133
▁out	-6.86155
▁It	-6.86491
▁if	-6.86717
nd	-6.86844
▁am	-6.87217
ge	-6.87413
▁man	-6.877
▁speak	-6.87743
▁How	-6.8777
▁see	-6.88278
ow	-6.89193
▁OPHELIA	-6.89437
▁make	-6.89441
▁very	-6.89447
▁say	-6.89457
R	-6.89737
▁some	-6.89743
▁h	-6.91072
▁So	-6.91694
us	-6.92391
▁Ill	-6.92479
▁should	-6.92964
ers	-6.94904
▁hath	-6.94925
▁did	-6.95493
▁hear	-6.9602
▁must	-6.96522
me	-6.97641
ut	-6.97995
▁If	-6.98034
▁l	-6.9988
▁give	-7.0044
▁pro	-7.00551
▁ch	-7.00711
ment	-7.01422
▁t	-7.01706
▁Why	-7.02182
▁This	-7.0224
▁such	-7.02514
W	-7.02671
ard	-7.03109
▁who	-7.03256
▁think	-7.04143
▁time	-7.04526
ous	-7.05063
▁ROSENCRANTZ	-7.06142
est	-7.08035
▁much	-7.08229
ic	-7.09258
LO	-7.10268
▁heaven	-7.10269
▁Let	-7.10368
pp	-7.1069
▁pa	-7.10792
▁too	-7.10987
ry	-7.12276
ose	-7.12422
▁here	-7.12736
▁su	-7.13302
▁she	-7.14319
▁thee	-7.1444
ST	-7.14582
▁play	-7.14631
▁With	-7.14653
ate	-7.15179
ld	-7.15768
ies	-7.1638
ng	-7.16518
ak	-7.16694
▁Horatio	-7.1679
ick	-7.17089
is	-7.18565
▁tis	-7.19189
▁lo	-7.19577
▁Of	-7.20161
▁o	-7.20431
▁po	-7.20825
▁Laertes	-7.21388
▁which	-7.21389
ol	-7.21798
am	-7.22071
ive	-7.23755
▁Be	-7.23769
▁mother	-7.2396
▁wh	-7.23962
▁upon	-7.24046
▁Where	-7.24086
ation	-7.24657
▁fe	-7.25162
ul	-7.25167
▁sh	-7.25209
▁m	-7.26204
▁night	-7.26218
vi	-7.27255
▁Do	-7.28101
▁one	-7.28402
▁tell	-7.28711
▁soul	-7.29047
ance	-7.29149
▁T	-7.29688
A	-7.29858
ave	-7.30134
▁death	-7.31275
▁own	-7.31292
▁We	-7.31964
low	-7.32056
▁can	-7.33005
ould	-7.33429
ine	-7.33578
▁up	-7.33636
▁had	-7.33678
▁though	-7.33775
ver	-7.33863
Exit	-7.33904
▁where	-7.33918
▁In	-7.34109
▁than	-7.34188
um	-7.35336
pe	-7.35397
age	-7.36175
ted	-7.36421
▁MARCELLUS	-7.36607
▁Polonius	-7.36607
our	-7.3685
▁Ti	-7.38294
lo	-7.38509
▁ba	-7.39298
ther	-7.39535
▁L	-7.39729
less	-7.39847
▁ma	-7.40153
ost	-7.40464
▁heart	-7.41223
▁ho	-7.41416
ness	-7.42119
Exeunt	-7.42241
▁Queen	-7.42242
▁Come	-7.42243
▁Who	-7.42263
ill	-7.42595
▁ra	-7.42709
▁tr	-7.42916
ish	-7.43009
▁these	-7.43229
ight	-7.43304
▁then	-7.43847
▁Th	-7.44898
▁GUILDENSTERN	-7.45183
▁life	-7.45183
▁take	-7.45192
▁might	-7.45267
▁show	-7.45309
▁hand	-7.45414
all	-7.45897
ful	-7.45974
▁ca	-7.46525
▁k	-7.46931
▁again	-7.47675
▁Ay	-7.47803
▁off	-7.47885
able	-7.47978
▁look	-7.4825
▁Ha	-7.49094
G	-7.50027
▁Or	-7.50761
▁There	-7.50809
▁Whe	-7.5102
▁sp	-7.51281
▁Guildenstern	-7.51338
▁thus	-7.51683
▁how	-7.51855
▁dear	-7.52032
▁God	-7.52228
▁oer	-7.52369
▁bo	-7.54483
▁part	-7.54586
▁i	-7.54703
▁mine	-7.54704
ity	-7.55271
▁di	-7.55296
ock	-7.55718
▁Ophelia	-7.57897
▁Castle	-7.57897
▁dead	-7.57918
▁yet	-7.58596
▁made	-7.5888
ty	-7.59549
▁le	-7.60126
▁matter	-7.61349
▁down	-7.61362
▁Now	-7.62039
▁D	-7.62719
▁when	-7.62723
▁per	-7.62916
▁thing	-7.63334
to	-7.6423
▁dis	-7.64855
▁Rosencrantz	-7.64917
▁cannot	-7.64917
▁room	-7.64917
▁great	-7.64919
▁head	-7.64982
▁leave	-7.64994
ence	-7.65045
uch	-7.65359
▁king	-7.65679
▁into	-7.65994
ince	-7.68087
▁Denmark	-7.6862
▁OSRIC	-7.6862
▁nature	-7.6862
▁world	-7.68622
▁pray	-7.68626
▁day	-7.68635
▁nothing	-7.68643
▁hold	-7.68732
▁call	-7.6915
read	-7.69603
ite	-7.69674
T	-7.70359
▁ear	-7.70737
ear	-7.71432
▁bl	-7.7183
unt	-7.72241
▁blood	-7.72467
▁put	-7.72887
he	-7.72988
▁Hi	-7.75129
▁been	-7.76116
▁follow	-7.76467
▁Good	-7.76473
lack	-7.76479
▁true	-7.76526
▁V	-7.77029
▁W	-7.77736
ward	-7.79182
▁Nay	-7.80633
▁Give	-7.80635
cene	-7.80721
▁ever	-7.80947
▁mad	-7.81503
▁fear	-7.81718
▁doth	-7.82018
▁R	-7.82025
▁lie	-7.82216
▁mi	-7.82402
▁sweet	-7.84981
▁itself	-7.84981
im	-7.8509
▁Well	-7.85192
▁fair	-7.8525
▁set	-7.85617
▁end	-7.85628
▁act	-7.86201
▁Your	-7.86413
▁does	-7.86626
▁nor	-7.87567
▁BARNARDO	-7.89527
▁away	-7.89527
▁find	-7.89547
▁done	-7.89615
▁live	-7.89733
▁both	-7.89823
side	-7.90368
▁fa	-7.91023
▁sea	-7.91103
▁seen	-7.91881
▁E	-7.92063
▁eyes	-7.92215
▁qu	-7.93528
▁England	-7.94288
▁SCENE	-7.94288
▁keep	-7.94289
▁indeed	-7.9429
ift	-7.94319
▁Which	-7.9432
nother	-7.94348
▁madness	-7.94359
▁Will	-7.94366
▁long	-7.94451
▁earth	-7.94539
▁son	-7.95111
▁Then	-7.9551
ue	-7.95942
ug	-7.97835
▁Go	-7.97873
each	-7.97922
▁By	-7.99288
▁himself	-7.99289
aught	-7.99289
▁grave	-7.99292
▁means	-7.99401
▁art	-8.00033
▁pur	-8.00442
ble	-8.00622
▁seem	-8.00762
▁bear	-8.01357
rous	-8.01803
▁little	-8.04552
▁spirit	-8.04552
▁honour	-8.04553
▁Lord	-8.04559
▁arm	-8.04695
▁other	-8.04722
▁noble	-8.04766
▁old	-8.04809
▁two	-8.05045
▁fall	-8.05071
▁ru	-8.05232
▁against	-8.05986
▁Nor	-8.06423
▁tw	-8.07899
act	-8.07991
ious	-8.08105
▁ta	-8.08251
_	-8.08652
▁speech	-8.10107
▁sleep	-8.10107
▁never	-8.10107
▁brother	-8.10108
▁tongue	-8.10108
▁stand	-8.10127
▁fla	-8.10227
▁before	-8.10568
▁Here	-8.11798
▁words	-8.12562
▁friends	-8.12993
▁many	-8.1312
▁ye	-8.1336
ling	-8.13518
▁PLAYER	-8.15989
▁Un	-8.15989
▁Up	-8.15989
▁believe	-8.15989
▁drink	-8.15989
▁murder	-8.15989
▁sword	-8.1599
▁cause	-8.15994
▁grow	-8.15997
▁comp	-8.16003
▁else	-8.16006
▁body	-8.16014
▁wind	-8.16023
▁even	-8.16025
▁Look	-8.16035
port	-8.16199
▁watch	-8.16232
▁form	-8.1645
▁state	-8.1649
▁H	-8.1674
▁fit	-8.17259
▁wit	-8.17313
▁once	-8.17547
atch	-8.17943
▁tra	-8.18397
▁eye	-8.18699
▁far	-8.18821
▁Re	-8.18962
▁rest	-8.19359
▁within	-8.19783
twe	-8.20892
▁hast	-8.2138
▁command	-8.22239
▁question	-8.2224
▁daughter	-8.22241
▁fellow	-8.22241
▁reason	-8.22242
▁first	-8.2225
▁free	-8.22277
▁better	-8.22296
▁use	-8.22378
▁mind	-8.22423
▁still	-8.22653
▁Than	-8.22686
▁thank	-8.22804
▁pe	-8.23927
▁young	-8.2479
ark	-8.2482
S	-8.26849
▁GHOST	-8.28906
▁about	-8.28906
▁breath	-8.28906
▁answer	-8.28906
▁said	-8.28907
▁honest	-8.28909
▁without	-8.28916
▁Did	-8.28918
▁last	-8.28923
▁light	-8.29144
▁players	-8.29271
ship	-8.29937
▁_	-8.3069
▁friend	-8.32428
lm	-8.32642
▁va	-8.32877
fore	-8.33167
▁Ne	-8.34585
The	-8.34738
time	-8.35112
ade	-8.35487
▁Fortinbras	-8.36049
▁REYNALDO	-8.36049
▁grief	-8.36049
▁yourself	-8.36049
▁lady	-8.36049
▁purpose	-8.3605
▁faith	-8.36051
▁grace	-8.36052
▁Thou	-8.36054
▁sense	-8.36061
▁damn	-8.36064
▁Make	-8.36073
▁turn	-8.36074
▁way	-8.36101
▁gone	-8.36135
▁passion	-8.36185
▁war	-8.36389
ign	-8.3681
qui	-8.37081
▁die	-8.37218
▁star	-8.37831
▁sent	-8.39374
▁ten	-8.40514
cious	-8.40992
L	-8.42313
P	-8.42326
like	-8.42539
tain	-8.43025
To	-8.43612
▁Gertrude	-8.43741
▁Norway	-8.43741
▁virtue	-8.43741
▁gentleman	-8.43742
▁please	-8.43742
▁need	-8.43744
▁fool	-8.43745
▁duty	-8.43748
▁work	-8.43748
▁kind	-8.43753
▁right	-8.43761
▁saw	-8.43775
▁after	-8.43775
▁fire	-8.43795
▁ourselves	-8.4383
▁Would	-8.43875
▁kill	-8.43938
▁SE	-8.43948
▁face	-8.44078
▁pass	-8.44286
▁thine	-8.4429
▁All	-8.45938
▁haste	-8.48205
▁word	-8.48496
ook	-8.49778
C	-8.50655
Sing	-8.51375
▁Hav	-8.51873
▁Yet	-8.52075
▁husband	-8.52075
▁villain	-8.52075
▁voice	-8.52075
▁strange	-8.52075
▁myself	-8.52075
▁return	-8.52075
▁name	-8.52076
▁further	-8.52076
▁poison	-8.52076
▁brain	-8.5208
▁something	-8.52081
CO	-8.52081
▁uncle	-8.52081
▁law	-8.52083
uff	-8.52085
▁while	-8.52085
▁Take	-8.52087
▁imp	-8.52091
▁power	-8.52099
▁help	-8.52101
▁near	-8.52103
▁same	-8.52105
▁welcome	-8.52172
ND	-8.52178
▁ground	-8.52185
▁action	-8.52364
thought	-8.52503
▁She	-8.52689
▁fine	-8.52789
arry	-8.53165
▁goes	-8.53485
▁pit	-8.53604
E	-8.53711
▁tri	-8.54006
▁foul	-8.54859
aint	-8.55264
D	-8.59624
▁joy	-8.61166
▁revenge	-8.61166
▁Elsinore	-8.61166
▁Farewell	-8.61166
▁Majesty	-8.61166
▁Marcellus	-8.61166
▁business	-8.61166
▁excellen	-8.61166
▁doubt	-8.61166
▁drown	-8.61166
▁thousand	-8.61167
▁desire	-8.61168
▁draw	-8.61169
▁queen	-8.61172
▁close	-8.61173
▁walk	-8.61174
▁maid	-8.61186
▁beaut	-8.61187
▁judgement	-8.61198
▁tonight	-8.61199
▁quick	-8.61324
▁fat	-8.61342
▁place	-8.61351
▁till	-8.61543
▁late	-8.61619
ourtier	-8.62
▁hour	-8.62201
V	-8.6973
ease	-8.69758
▁pla	-8.70201
▁Pyrrhus	-8.71166
▁awhile	-8.71166
▁fortune	-8.71166
▁phrase	-8.71166
▁second	-8.71166
▁skull	-8.71166
▁guilt	-8.71166
▁memory	-8.71166
▁Indeed	-8.71166
found	-8.71167
▁gentlemen	-8.71167
▁hither	-8.71167
▁alone	-8.71168
▁dream	-8.71168
▁back	-8.71169
▁short	-8.7118
▁full	-8.71187
safe	-8.71215
▁stay	-8.71219
▁none	-8.71282
▁Ala	-8.71363
▁acc	-8.71368
▁came	-8.71837
ike	-8.74021
▁Eve	-8.74369
ept	-8.80754
Within	-8.81822
ject	-8.82277
▁custom	-8.82277
▁FRANCISCO	-8.82277
▁Ghost	-8.82277
▁through	-8.82277
▁understand	-8.82277
▁crown	-8.82277
▁liber	-8.82277
▁wife	-8.82277
▁danger	-8.82277
▁present	-8.82277
▁Speak	-8.82278
▁strong	-8.82278
▁remember	-8.8228
▁pardon	-8.82281
▁together	-8.82282
▁shame	-8.82284
▁rank	-8.82285
▁mouth	-8.82292
▁land	-8.823
▁house	-8.82305
▁lay	-8.82311
▁bring	-8.82327
▁May	-8.82369
▁marry	-8.82394
▁mark	-8.82438
▁send	-8.82448
claim	-8.82538
▁hope	-8.82595
▁over	-8.82681
▁prec	-8.83146
ander	-8.83739
▁sigh	-8.89135
gainst	-8.93614
▁court	-8.93657
ffect	-8.94596
▁Attendants	-8.94777
▁Barnardo	-8.94777
▁Fortune	-8.94777
▁fashion	-8.94777
▁particular	-8.94777
▁service	-8.94777
▁beseech	-8.94777
▁soldier	-8.94777
▁woman	-8.94777
ified	-8.94777
▁confess	-8.94777
▁desperat	-8.94777
▁obey	-8.94777
▁music	-8.94777
▁violen	-8.94778
▁Though	-8.94778
▁charge	-8.94779
▁wrong	-8.94779
▁fault	-8.94779
▁shape	-8.94779
▁peace	-8.94779
▁devil	-8.94782
▁break	-8.94783
▁appear	-8.94783
▁import	-8.94784
▁dull	-8.94784
▁suffer	-8.94787
▁exp	-8.94788
▁false	-8.94788
▁sound	-8.94788
▁neither	-8.94788
▁Dane	-8.94796
▁noise	-8.94805
▁month	-8.94807
▁emp	-8.94808
▁twere	-8.94816
arrow	-8.9482
▁three	-8.94841
▁morn	-8.94861
▁III	-8.94871
▁gla	-8.94876
▁Therefore	-8.94888
▁writ	-8.94901
▁woe	-8.94912
▁wise	-8.94924
▁effect	-8.94957
▁beast	-8.94974
▁offence	-8.95006
▁enter	-8.95037
iff	-8.95506
▁vil	-8.98395
ttle	-8.98664
either	-9.02078
▁nati	-9.05183
▁cla	-9.08907
▁Christian	-9.09062
▁FORTINBRAS	-9.09062
▁circumstance	-9.09062
▁conscience	-9.09062
▁enough	-9.09062
▁marriage	-9.09062
▁struck	-9.09062
▁trumpet	-9.09062
▁wholesome	-9.09062
▁wisdom	-9.09062
▁common	-9.09062
▁general	-9.09062
▁entreat	-9.09063
▁sorrow	-9.09063
▁temp	-9.09063
▁heavy	-9.09063
▁prison	-9.09063
▁favour	-9.09063
▁visit	-9.09063
▁bound	-9.09065
▁change	-9.09065
▁Swear	-9.09066
▁ghost	-9.09066
▁double	-9.09066
▁Hold	-9.09066
▁quiet	-9.09068
▁Heaven	-9.09069
▁wager	-9.0907
▁sister	-9.09071
oppos	-9.09073
▁throw	-9.09077
▁cannon	-9.09078
▁health	-9.0908
▁point	-9.09084
▁coming	-9.09091
▁season	-9.091
▁begin	-9.09102
▁dust	-9.09102
▁water	-9.09114
▁letters	-9.0915
ancy	-9.0915
▁soft	-9.09165
▁list	-9.09167
▁More	-9.09198
▁lai	-9.09317
ortal	-9.10201
H	-9.24276
round	-9.25508
selves	-9.25531
&	-9.25729
▁join	-9.25729
▁recover	-9.25729
special	-9.25729
▁Players	-9.25729
▁Voltemand	-9.25729
▁ambition	-9.25729
▁brought	-9.25729
▁commend	-9.25729
▁discourse	-9.25729
▁farewell	-9.25729
▁laugh	-9.25729
▁observ	-9.25729
▁platform	-9.25729
▁Faith	-9.25729
▁French	-9.25729
▁buried	-9.25729
▁direct	-9.25729
▁remain	-9.25729
▁herself	-9.25729
▁knew	-9.25729
▁piece	-9.25729
▁slain	-9.25729
▁wretch	-9.25729
▁already	-9.25729
▁pleasure	-9.25729
▁sudden	-9.2573
▁prepar	-9.2573
▁Danish	-9.2573
▁hide	-9.2573
▁forgot	-9.2573
▁Osric	-9.2573
▁spoke	-9.2573
▁warrant	-9.25731
▁dumb	-9.25732
▁delight	-9.25733
▁certain	-9.25733
▁humbl	-9.25733
▁truth	-9.25735
▁march	-9.25736
▁gentle	-9.25736
▁bodies	-9.25736
▁slave	-9.25737
▁course	-9.2574
▁horse	-9.25747
▁proof	-9.25747
craft	-9.25748
▁angel	-9.25749
▁spring	-9.25749
▁proper	-9.25756
foot	-9.25765
deliver	-9.25785
▁tender	-9.25797
▁dare	-9.25806
▁born	-9.25811
Read	-9.26035
▁stop	-9.26202
▁remo	-9.26566
▁Whi	-9.26604
▁crie	-9.2674
master	-9.32458
elcome	-9.45481
discretion	-9.45729
▁Both	-9.45729
▁Cornelius	-9.45729
▁Reynaldo	-9.45729
▁accident	-9.45729
▁audience	-9.45729
▁carriages	-9.45729
▁commission	-9.45729
▁countenance	-9.45729
▁creature	-9.45729
▁cunning	-9.45729
▁disposition	-9.45729
▁figure	-9.45729
▁flourish	-9.45729
▁imagination	-9.45729
▁majesty	-9.45729
▁mountain	-9.45729
▁natural	-9.45729
▁nunnery	-9.45729
▁patience	-9.45729
▁practice	-9.45729
▁remembrance	-9.45729
▁secret	-9.45729
▁burial	-9.45729
▁cloud	-9.45729
▁high	-9.45729
▁shadow	-9.45729
▁anything	-9.45729
lection	-9.45729
▁chief	-9.45729
▁demand	-9.45729
▁kingdom	-9.45729
▁visage	-9.45729
▁rapier	-9.4573
▁flesh	-9.4573
▁behind	-9.4573
▁twelve	-9.4573
▁beggar	-9.4573
ethinks	-9.4573
▁mercy	-9.45731
▁stood	-9.45731
▁Priam	-9.45731
▁Stay	-9.45731
morrow	-9.45732
▁silence	-9.45733
scape	-9.45734
▁gross	-9.45735
▁colour	-9.45735
▁Without	-9.45736
▁France	-9.45736
▁arras	-9.45737
▁impart	-9.45737
▁habit	-9.45738
▁truly	-9.45744
▁knee	-9.45747
dvanc	-9.4684
▁easi	-9.499
O	-9.69278
F	-9.69318
haste	-9.69498
▁judge	-9.70634
emember	-9.70722
▁corrupt	-9.70729
▁Adieu	-9.70729
▁Gentleman	-9.70729
▁Gonzago	-9.70729
▁Hecuba	-9.70729
▁LORD	-9.70729
▁Sailors	-9.70729
▁Wittenberg	-9.70729
J	-10.5709
Z	-10.571
z	-10.5711
j	-10.5712
q	-10.5713
Q	-10.5714
Y	-10.5715
]	-10.5716
[	-10.5717
K	-10.5718
B	-10.5719
U	-10.572
M	-10.5721
