<unk>	0
<s>	0
</s>	0
s	-3.29845
t	-3.61012
▁	-3.64513
.	-3.89609
e	-4.0414
▁I	-4.04197
▁to	-4.1698
'	-4.17443
m	-4.20076
▁@	-4.26299
ing	-4.38328
▁the	-4.46716
y	-4.485
▁a	-4.55699
,	-4.64965
▁i	-4.66179
!	-4.7106
i	-4.71322
o	-4.72713
▁my	-4.88105
n	-4.88921
▁it	-4.95633
d	-4.95838
ed	-4.96031
a	-4.98155
▁and	-5.06686
p	-5.10291
...	-5.15643
▁in	-5.20333
r	-5.20434
h	-5.2585
l	-5.28033
▁is	-5.29139
b	-5.34941
c	-5.35419
re	-5.36189
er	-5.36299
k	-5.36578
▁for	-5.40087
u	-5.42839
▁you	-5.46271
in	-5.48639
?	-5.50811
▁so	-5.52368
▁me	-5.52919
g	-5.5823
▁have	-5.59423
▁on	-5.60205
w	-5.61626
▁be	-5.61921
▁of	-5.65006
ll	-5.65869
ar	-5.70574
▁that	-5.72362
▁f	-5.76904
f	-5.77229
▁but	-5.773
▁S	-5.77682
an	-5.78172
;	-5.79088
le	-5.79216
▁s	-5.806
ly	-5.82377
▁not	-5.89239
▁was	-5.89847
▁go	-5.91612
it	-5.93885
ch	-5.95761
S	-5.95903
E	-5.9734
▁b	-5.98325
v	-5.99532
▁can	-6.00239
▁c	-6.00364
▁with	-6.01466
on	-6.02627
T	-6.03092
al	-6.0361
en	-6.04414
A	-6.06095
▁at	-6.06669
or	-6.07235
▁just	-6.0905
▁B	-6.10728
ri	-6.12234
▁no	-6.12433
▁don	-6.13514
▁A	-6.1382
..	-6.14264
▁do	-6.1509
ra	-6.17975
▁get	-6.19178
▁up	-6.20646
▁now	-6.20941
▁&	-6.2129
▁work	-6.21478
▁this	-6.21994
ot	-6.22211
M	-6.22349
th	-6.2303
ve	-6.23269
L	-6.26811
qu	-6.27449
z	-6.28398
I	-6.28701
▁all	-6.28765
ur	-6.28776
ro	-6.29836
▁D	-6.3059
▁like	-6.3145
▁out	-6.31674
▁we	-6.32281
O	-6.32664
es	-6.33955
ad	-6.34119
▁p	-6.34496
x	-6.34618
am	-6.35401
▁want	-6.35536
▁day	-6.36898
ck	-6.3702
-	-6.3704
D	-6.37745
j	-6.39215
_	-6.39682
H	-6.39961
ic	-6.42072
▁too	-6.42667
▁L	-6.43383
▁are	-6.44591
▁today	-6.46494
el	-6.47641
▁see	-6.48353
▁P	-6.48718
la	-6.48921
!!	-6.4985
oo	-6.50547
lo	-6.51634
ce	-6.51974
C	-6.52493
ie	-6.53589
at	-6.53647
▁got	-6.54257
▁miss	-6.54474
▁fro	-6.54753
▁really	-6.56912
amp	-6.5809
ng	-6.58974
and	-6.59097
▁-	-6.59199
▁2	-6.59704
▁good	-6.61231
un	-6.61521
▁W	-6.61544
R	-6.61545
is	-6.62286
▁he	-6.62601
▁M	-6.6314
ow	-6.63272
▁F	-6.63425
▁w	-6.64063
▁going	-6.65589
▁sad	-6.66306
0	-6.66924
▁l	-6.67278
▁C	-6.67487
▁T	-6.67975
▁time	-6.69937
▁think	-6.72472
ir	-6.72797
▁st	-6.72922
▁re	-6.74232
▁feel	-6.74294
▁h	-6.74891
▁H	-6.75691
▁need	-6.76718
us	-6.77203
▁know	-6.77589
▁one	-6.78298
▁off	-6.78554
▁what	-6.79697
▁home	-6.80786
▁about	-6.81858
ha	-6.81913
Y	-6.82397
▁im	-6.84216
B	-6.84831
▁G	-6.84937
▁am	-6.85505
ol	-6.85727
G	-6.85983
ter	-6.86981
▁still	-6.87523
▁tomorrow	-6.87556
▁back	-6.87674
▁ma	-6.88603
ry	-6.89082
1	-6.89396
▁O	-6.91588
K	-6.92011
▁sleep	-6.92209
▁de	-6.92799
▁has	-6.93083
U	-6.94524
▁some	-6.95024
▁The	-6.95117
N	-6.95848
P	-6.9711
had	-6.97138
day	-6.99549
....	-7.00446
!!!	-7.00894
will	-7.01177
op	-7.03276
ent	-7.03686
▁love	-7.03787
▁u	-7.03956
▁how	-7.04102
ast	-7.04277
ne	-7.04354
▁your	-7.04489
▁they	-7.04919
W	-7.05227
▁last	-7.05342
▁ha	-7.05895
▁bad	-7.05917
▁there	-7.06043
id	-7.06274
▁when	-7.0652
▁look	-7.07928
ay	-7.08013
&	-7.08165
▁g	-7.0821
▁My	-7.08325
nt	-7.08509
co	-7.09101
▁her	-7.09561
▁or	-7.11041
▁mo	-7.11121
▁watch	-7.11198
▁night	-7.11423
▁n	-7.12276
▁an	-7.12455
▁more	-7.12749
▁E	-7.12768
▁sp	-7.13609
▁wish	-7.139
ut	-7.15432
2	-7.15712
▁d	-7.17452
vi	-7.17634
▁here	-7.18093
3	-7.18501
▁N	-7.18849
:	-7.18922
um	-7.22362
▁1	-7.22559
im	-7.23029
/	-7.23223
▁again	-7.23225
▁sick	-7.23236
▁new	-7.23373
▁as	-7.23938
▁well	-7.24125
▁No	-7.24741
)	-7.2489
▁she	-7.25438
me	-7.26106
▁right	-7.26628
ate	-7.26674
ta	-7.27167
??	-7.27209
▁only	-7.28237
9	-7.28308
▁morning	-7.28309
▁sorry	-7.28314
▁make	-7.28458
▁com	-7.28661
up	-7.29084
F	-7.29205
▁man	-7.29596
sh	-7.30026
7	-7.30063
ag	-7.30445
5	-7.31027
as	-7.31221
▁R	-7.31222
no	-7.31549
ke	-7.31726
ion	-7.31831
▁3	-7.31924
▁4	-7.32157
▁#	-7.33841
ah	-7.34297
▁r	-7.34315
▁hate	-7.34385
ine	-7.34395
J	-7.34462
ny	-7.34488
all	-7.35066
▁hope	-7.35449
▁over	-7.35538
▁U	-7.35725
▁lol	-7.35794
▁oh	-7.3582
ist	-7.36611
to	-7.36714
▁why	-7.37419
out	-7.37789
uck	-7.37918
▁if	-7.38459
▁J	-7.38676
est	-7.38761
ff	-7.39036
▁been	-7.39039
▁much	-7.3933
▁even	-7.39331
▁bed	-7.39486
▁way	-7.39887
▁week	-7.41265
▁di	-7.41558
nna	-7.4217
8	-7.4264
▁didn	-7.42689
▁down	-7.43301
ma	-7.43725
ug	-7.43809
▁Go	-7.44239
na	-7.45274
▁ex	-7.45278
▁hear	-7.45945
▁by	-7.46352
ld	-7.46451
▁gr	-7.46685
▁though	-7.46765
ack	-7.47077
▁twitter	-7.47414
▁tired	-7.47419
▁wanna	-7.47468
▁then	-7.47864
de	-7.48028
ia	-7.49252
▁who	-7.49555
ge	-7.49597
▁try	-7.4968
nd	-7.49699
▁k	-7.4979
▁(	-7.50211
ca	-7.50255
▁So	-7.50447
▁se	-7.50513
▁long	-7.5173
▁very	-7.51755
▁rain	-7.51762
▁K	-7.52074
▁da	-7.52209
▁would	-7.52369
▁come	-7.52491
▁days	-7.52756
gg	-7.52773
▁any	-7.52792
▁car	-7.5323
▁po	-7.53319
che	-7.53413
4	-7.53601
▁x	-7.53651
ru	-7.53818
▁la	-7.54264
be	-7.54993
!!!!	-7.55108
ec	-7.55362
▁du	-7.55918
▁hi	-7.56198
▁sun	-7.57321
ver	-7.57697
▁left	-7.58538
▁Ha	-7.58813
▁tonight	-7.59095
ish	-7.59881
▁mi	-7.60629
*	-7.60708
the	-7.60877
ake	-7.60918
▁won	-7.61637
▁wa	-7.61747
hi	-7.61891
▁:	-7.62518
ear	-7.62933
ak	-7.63191
▁school	-7.63356
▁should	-7.63356
▁Just	-7.63361
▁hard	-7.63463
▁al	-7.63573
▁show	-7.6361
▁feeling	-7.63975
▁friend	-7.64147
▁fun	-7.64313
▁Ma	-7.64341
hh	-7.64864
ul	-7.64914
▁them	-7.66131
▁could	-7.66637
end	-7.66718
lu	-7.6721
▁We	-7.67708
▁him	-7.67814
ers	-7.67864
▁...	-7.67885
▁Not	-7.68261
▁play	-7.68432
▁haha	-7.68649
▁gett	-7.68781
▁It	-7.6948
▁un	-7.70311
▁did	-7.70443
▁nex	-7.71167
ost	-7.71738
pl	-7.72065
▁start	-7.7304
▁find	-7.73779
▁take	-7.73845
ord	-7.74027
one	-7.74432
ail	-7.75415
▁Oh	-7.75595
aw	-7.76288
ig	-7.76439
▁early	-7.76542
ous	-7.78363
able	-7.79047
ies	-7.79362
▁weekend	-7.79461
.....	-7.79801
▁doesn	-7.80287
▁us	-7.81569
▁before	-7.82335
▁year	-7.82371
▁And	-7.82679
▁You	-7.83395
▁cry	-7.84015
▁con	-7.84518
light	-7.84922
▁bo	-7.85042
X	-7.85361
▁yet	-7.85396
▁keep	-7.85404
ash	-7.85418
V	-7.85802
▁call	-7.85834
dd	-7.86634
▁late	-7.87265
ther	-7.8773
ba	-7.88029
▁thing	-7.88064
▁fe	-7.88285
▁people	-7.88486
▁than	-7.88518
▁Y	-7.88552
▁hot	-7.88597
▁never	-7.88616
▁wi	-7.88635
we	-7.89422
▁5	-7.89951
ud	-7.9009
ough	-7.90591
ight	-7.90777
▁wait	-7.90811
our	-7.91022
▁soon	-7.91195
ber	-7.91408
ON	-7.91603
▁NO	-7.91699
▁stuff	-7.91712
▁having	-7.91719
▁after	-7.91722
▁Why	-7.91733
▁weather	-7.91843
▁bit	-7.92111
ment	-7.92209
ation	-7.92211
bo	-7.92412
▁doing	-7.92602
ble	-7.92605
▁pa	-7.93225
▁sha	-7.9382
▁Wa	-7.93876
▁To	-7.94165
ood	-7.94935
▁phone	-7.95046
▁tweet	-7.95252
▁does	-7.95485
▁away	-7.95685
▁things	-7.95696
▁head	-7.95753
6	-7.95793
▁Re	-7.9761
▁mean	-7.97751
▁missed	-7.98063
pa	-7.98102
▁use	-7.9811
10	-7.9813
▁mom	-7.98349
▁first	-7.98494
▁great	-7.985
▁better	-7.98528
▁already	-7.98537
▁sure	-7.98556
▁until	-7.98612
▁ho	-7.99365
age	-7.99667
ja	-7.997
▁cr	-8.00156
ard	-8.00279
ab	-8.0062
▁hurts	-8.00783
ity	-8.01946
▁follow	-8.01997
▁cold	-8.02089
ittle	-8.0214
▁lost	-8.0228
▁He	-8.02359
▁cut	-8.02747
▁gone	-8.03267
ant	-8.03284
ian	-8.03439
ways	-8.03441
RE	-8.03565
ark	-8.03719
ever	-8.03735
▁yesterday	-8.05768
▁That	-8.05784
▁other	-8.05797
▁someone	-8.05973
▁*	-8.06096
▁exam	-8.06115
▁But	-8.06386
lin	-8.07069
▁bl	-8.07129
▁Ch	-8.07201
▁sho	-8.07228
▁hours	-8.08085
▁mad	-8.08647
▁something	-8.09623
▁bored	-8.09638
▁also	-8.09679
▁ti	-8.09869
▁pain	-8.10153
▁let	-8.10518
for	-8.10834
▁say	-8.10867
▁ya	-8.11103
ina	-8.11189
▁V	-8.13031
va	-8.13232
▁yeah	-8.13616
▁finish	-8.13617
▁chi	-8.13638
▁please	-8.13707
▁working	-8.14166
▁where	-8.14453
oooo	-8.14657
ful	-8.14786
▁gu	-8.14814
▁Mo	-8.15337
ive	-8.15819
side	-8.15968
lf	-8.16307
ated	-8.16938
▁study	-8.17783
▁guess	-8.17791
▁end	-8.1804
▁aww	-8.18235
▁ga	-8.18532
ance	-8.18798
since	-8.19046
▁lot	-8.19327
▁app	-8.19401
less	-8.20356
▁dr	-8.20477
▁read	-8.20843
▁On	-8.22005
Z	-8.22129
▁life	-8.2213
▁actual	-8.2213
▁nice	-8.22145
▁What	-8.22148
▁help	-8.22149
▁same	-8.22185
▁big	-8.22728
▁tho	-8.22789
▁ba	-8.22867
▁br	-8.23223
▁leave	-8.23308
xx	-8.23509
AT	-8.23601
▁done	-8.23932
▁em	-8.24664
ga	-8.25011
aaa	-8.25473
AN	-8.25748
▁sucks	-8.25782
▁far	-8.26186
ather	-8.26313
▁Can	-8.26606
▁because	-8.26674
▁stupid	-8.26675
▁talk	-8.26678
▁This	-8.26688
▁everyone	-8.26714
▁ugh	-8.2675
▁idea	-8.26773
body	-8.26791
▁final	-8.26893
▁eat	-8.27034
▁fail	-8.27217
▁put	-8.27325
ney	-8.27741
zz	-8.28022
▁8	-8.28185
▁suck	-8.28587
▁ne	-8.29047
▁these	-8.29641
rrr	-8.30185
▁pre	-8.30529
▁haven	-8.31013
▁house	-8.31444
▁kill	-8.31445
▁damn	-8.31466
ike	-8.31622
▁whi	-8.31631
▁game	-8.31653
▁while	-8.31758
▁book	-8.31948
▁stop	-8.31953
ward	-8.32016
▁pro	-8.33059
▁boo	-8.33292
▁best	-8.33699
ready	-8.33828
ious	-8.34092
▁min	-8.34156
▁sw	-8.34197
▁Al	-8.34379
eep	-8.34409
box	-8.34621
igh	-8.34654
30	-8.34828
ally	-8.35539
▁our	-8.35717
www	-8.35984
=	-8.36436
▁movie	-8.36449
▁guys	-8.3649
▁homework	-8.36499
▁alone	-8.36574
▁live	-8.3663
▁ok	-8.36801
▁hair	-8.36908
▁girl	-8.37358
▁win	-8.37365
com	-8.37875
ju	-8.38036
▁thought	-8.38043
ound	-8.38804
▁6	-8.40518
ER	-8.4061
▁cat	-8.4107
ness	-8.41124
Jo	-8.41172
▁suppose	-8.41699
▁happen	-8.417
▁anymore	-8.417
▁class	-8.41702
▁break	-8.41704
▁anything	-8.41706
▁month	-8.41713
▁under	-8.41718
▁thanks	-8.4173
▁shit	-8.41775
▁old	-8.41852
▁mine	-8.41852
▁Wish	-8.42016
▁sound	-8.42144
▁broken	-8.42181
▁stay	-8.42282
etting	-8.44342
▁total	-8.44437
▁ever	-8.44512
two	-8.47235
▁summer	-8.47255
▁headache	-8.47256
▁woke	-8.47259
▁omg	-8.47262
▁said	-8.47267
▁baby	-8.47268
▁fix	-8.47279
▁plan	-8.47331
▁nothing	-8.47373
now	-8.47618
mon	-8.47969
▁real	-8.48531
▁died	-8.49298
▁hurt	-8.49336
▁waiting	-8.49553
way	-8.50238
act	-8.52871
▁job	-8.53138
▁pretty	-8.53138
▁myself	-8.53139
▁learn	-8.53143
▁room	-8.5315
▁poor	-8.53826
▁post	-8.53924
rad	-8.53977
;3	-8.54355
▁every	-8.54411
▁rest	-8.54433
▁started	-8.54796
▁hour	-8.56166
col	-8.57024
▁Twitter	-8.59387
▁music	-8.59388
▁another	-8.59391
▁must	-8.59397
▁face	-8.59406
▁cool	-8.59426
happy	-8.59431
▁might	-8.59469
▁outside	-8.59679
each	-8.5979
▁boy	-8.6188
▁pic	-8.62197
round	-8.62945
night	-8.63409
▁couldn	-8.63957
▁wouldn	-8.64032
time	-8.64072
ange	-8.65113
▁believe	-8.66054
▁dinner	-8.66054
▁world	-8.66055
▁Monday	-8.66057
▁LOL	-8.66057
▁turn	-8.6606
▁Damn	-8.66069
ING	-8.66156
▁money	-8.66181
▁run	-8.66778
▁party	-8.66992
▁How	-8.67019
ouch	-8.67051
pri	-8.67439
▁sooo	-8.68491
nite	-8.71101
eee	-8.71297
tching	-8.73063
$	-8.73197
▁excited	-8.73197
▁iPhone	-8.73197
▁tried	-8.73204
▁Ugh	-8.73206
▁change	-8.73207
▁dream	-8.73208
▁Feel	-8.73223
▁such	-8.73226
▁open	-8.73236
▁Miss	-8.73249
▁those	-8.73307
▁eye	-8.73353
▁anyone	-8.73372
▁leg	-8.73462
▁pass	-8.73565
IN	-8.74106
▁flu	-8.74219
▁dead	-8.74378
▁tre	-8.75835
rgh	-8.78216
The	-8.78418
▁Some	-8.79427
▁sigh	-8.79923
▁account	-8.80889
▁through	-8.80889
▁everything	-8.80893
▁drink	-8.80893
▁taking	-8.80893
▁THE	-8.80893
▁maybe	-8.80894
▁Sorry	-8.80897
▁kids	-8.80905
▁enough	-8.80906
▁awake	-8.80907
▁slow	-8.80922
▁New	-8.80938
▁boring	-8.80962
aught	-8.8098
ALL	-8.80991
▁blog	-8.80996
▁give	-8.81093
▁kinda	-8.81256
▁moment	-8.81328
▁tru	-8.81332
▁yes	-8.81379
▁Have	-8.81661
▁crap	-8.81725
ture	-8.81949
▁20	-8.82121
lip	-8.8525
went	-8.8533
friend	-8.8649
(	-8.86562
▁part	-8.88222
▁broke	-8.88456
full	-8.88703
lease	-8.89067
+	-8.89222
▁awesome	-8.89222
▁probably	-8.89222
▁throat	-8.89223
▁freak	-8.89229
▁super	-8.89233
▁wonder	-8.89244
▁online	-8.89248
▁came	-8.89325
▁Still	-8.89508
ction	-8.89813
▁hug	-8.89878
▁cancel	-8.89918
▁food	-8.90119
ense	-8.90288
▁Try	-8.90313
▁MY	-8.90341
app	-8.9272
work	-8.95619
▁forgot	-8.97939
Q	-8.98313
]	-8.98313
▁Saturday	-8.98313
perfect	-8.98313
▁video	-8.98313
▁internet	-8.98314
▁YOU	-8.98314
john	-8.98314
▁issues	-8.98315
▁wrong	-8.98316
▁lunch	-8.98318
▁minute	-8.98322
▁paper	-8.98325
▁meeting	-8.98333
▁walk	-8.98336
▁update	-8.98368
▁ride	-8.98369
▁reason	-8.98375
▁tell	-8.98376
▁qui	-8.98409
ummy	-8.98425
▁drive	-8.98462
▁black	-8.98482
▁followers	-8.9849
▁tea	-8.98529
▁twi	-8.98656
▁Good	-8.98682
▁beach	-8.98773
opefully	-8.9886
uuu	-8.98901
▁11	-8.98953
dress	-8.99057
cuz	-8.99079
▁Want	-8.99113
twee	-8.99924
▁upset	-9.01088
illy	-9.05374
14	-9.05471
fil	-9.05648
till	-9.05828
q	-9.07878
▁Hope	-9.08235
▁computer	-9.08313
▁hungry	-9.08313
▁horrible	-9.08313
▁stomach	-9.08313
▁doctor	-9.08314
▁OMG	-9.08315
▁lonely	-9.08315
▁complete	-9.08316
▁Friday	-9.08316
▁worse	-9.08325
▁picture	-9.08339
▁weird	-9.0834
▁link	-9.08375
▁load	-9.08397
▁buy	-9.08432
▁okay	-9.08515
▁own	-9.08556
▁finger	-9.08581
24	-9.1101
▁eas	-9.11182
port	-9.1221
^	-9.19424
▁laptop	-9.19425
▁instead	-9.19425
▁spoil	-9.19425
▁teeth	-9.19425
▁course	-9.19425
▁either	-9.19426
VERY	-9.19426
▁decide	-9.19427
▁worst	-9.19428
▁cause	-9.1943
▁train	-9.19431
▁lucky	-9.19435
▁Work	-9.1944
uddle	-9.19444
▁else	-9.19453
▁sister	-9.19453
▁Time	-9.1946
shirt	-9.19468
oooooooo	-9.19524
▁warm	-9.1954
▁email	-9.19546
mcf	-9.19654
▁fav	-9.19753
▁She	-9.21522
quite	-9.21611
where	-9.29245
%	-9.31924
▁beautiful	-9.31924
▁birthday	-9.31924
▁disappoint	-9.31924
▁enjoy	-9.31924
▁frustrat	-9.31924
▁graduation	-9.31924
▁family	-9.31925
▁iphone	-9.31925
▁shopping	-9.31925
▁concert	-9.31925
▁second	-9.31925
▁airport	-9.31926
▁dropp	-9.31926
▁listen	-9.31927
▁brother	-9.31928
▁person	-9.31928
▁count	-9.31929
design	-9.31929
▁stopped	-9.31937
▁sign	-9.31942
▁When	-9.31945
▁check	-9.31956
onnie	-9.31962
▁Does	-9.3197
▁close	-9.31989
▁office	-9.31995
view	-9.32002
▁craz	-9.3202
▁least	-9.32035
ondon	-9.32065
▁foot	-9.32151
OOO	-9.32156
eason	-9.32274
ship	-9.32339
Love	-9.3282
aint	-9.33108
gotten	-9.36097
▁leav	-9.42245
girl	-9.43544
▁kind	-9.45541
▁depressing	-9.4621
▁episode	-9.4621
▁project	-9.4621
▁realized	-9.4621
▁remember	-9.4621
▁unfortunat	-9.4621
[	-9.4621
▁HAHA	-9.4621
▁Thank	-9.4621
▁couple	-9.4621
hhhhhh	-9.4621
▁photo	-9.46211
▁screw	-9.46211
▁ticket	-9.46211
▁grandma	-9.46211
▁text	-9.46211
▁Where	-9.46212
▁dentist	-9.46212
▁cloud	-9.46212
▁gutted	-9.46212
▁WTF	-9.46213
▁message	-9.46214
▁window	-9.46214
▁cousin	-9.46217
▁Yeah	-9.46218
▁normal	-9.46218
▁June	-9.46235
▁delete	-9.46264
▁save	-9.46298
▁ahhh	-9.46402
?!?!	-9.46467
brain	-9.47169
▁depressed	-9.62877
▁exhausted	-9.62877
▁pizza	-9.62877
▁saturday	-9.62877
▁seriously	-9.62877
▁vacation	-9.62877
▁sunburn	-9.62877
bsolut	-9.62877
graph	-9.62877
▁parents	-9.62877
▁Morning	-9.62878
▁figure	-9.62878
▁scared	-9.62878
▁afternoon	-9.62878
▁Finally	-9.62879
@	-9.80248
#	-10.0523
`	-10.4121
|	-10.4121
~	-10.4121
{	-11.912
\	-11.9121
}	-11.9121
